{
  "<unk>": 0,
  "<s>": 1,
  "</s>": 2,
  "\\frac": 3,
  "\\sqrt": 4,
  "\\sum": 5,
  "\\int": 6,
  "\\lim": 7,
  "\\alpha": 8,
  "\\beta": 9,
  "\\gamma": 10,
  "\\delta": 11,
  "\\epsilon": 12,
  "\\text": 13,
  "\\mathrm": 14,
  "\\mathbf": 15,
  "\\mathbb": 16,
  "}▁": 17,
  "{▁": 18,
  "_▁": 19,
  "^▁": 20,
  "(▁": 21,
  ")▁": 22,
  "2▁": 23,
  "i▁": 24,
  "a▁": 25,
  "1▁": 26,
  ",▁": 27,
  "-▁": 28,
  "=▁": 29,
  "e▁": 30,
  "+▁": 31,
  "u▁": 32,
  "l▁": 33,
  "ar": 34,
  "ig": 35,
  "0▁": 36,
  "d▁": 37,
  "t▁": 38,
  "\"▁": 39,
  "n▁": 40,
  "x▁": 41,
  "al▁": 42,
  "am": 43,
  "ft": 44,
  "\\,▁": 45,
  "ti": 46,
  "igh": 47,
  "ight": 48,
  "right": 49,
  "c▁": 50,
  "m▁": 51,
  "mu▁": 52,
  "le": 53,
  "ra": 54,
  "left": 55,
  "\\▁": 56,
  "s▁": 57,
  "hi▁": 58,
  "r▁": 59,
  "k▁": 60,
  "ta▁": 61,
  "p▁": 62,
  ";▁": 63,
  ".▁": 64,
  "par": 65,
  "3▁": 66,
  "parti": 67,
  "partial▁": 68,
  "~▁": 69,
  "eta▁": 70,
  "pr": 71,
  "A▁": 72,
  "&▁": 73,
  ",\"▁": 74,
  "4▁": 75,
  "f▁": 76,
  "j▁": 77,
  "g▁": 78,
  "phi▁": 79,
  "\\;▁": 80,
  "o▁": 81,
  "im": 82,
  "ma▁": 83,
  "ime▁": 84,
  "prime▁": 85,
  "[▁": 86,
  "bd": 87,
  "ambd": 88,
  "ambda▁": 89,
  "eg": 90,
  "]▁": 91,
  "in": 92,
  "nu▁": 93,
  "y▁": 94,
  "|▁": 95,
  "pi▁": 96,
  "z▁": 97,
  "b▁": 98,
  "q▁": 99,
  "do": 100,
  "cal▁": 101,
  "\\\\▁": 102,
  "\"\\": 103,
  "ar▁": 104,
  "pe": 105,
  "th": 106,
  "bar▁": 107,
  "to": 108,
  ".\"▁": 109,
  "ope": 110,
  "rn": 111,
  "rato": 112,
  "rnam": 113,
  "operato": 114,
  "operatornam": 115,
  "qu": 116,
  "N▁": 117,
  "lambda▁": 118,
  "igma▁": 119,
  "si▁": 120,
  "T▁": 121,
  "ray": 122,
  "array": 123,
  "R▁": 124,
  "S▁": 125,
  "D▁": 126,
  "operatorname▁": 127,
  "meg": 128,
  "mega▁": 129,
  "L▁": 130,
  "M▁": 131,
  "theta▁": 132,
  "le▁": 133,
  "B▁": 134,
  "ve": 135,
  "ha": 136,
  "sigma▁": 137,
  "F▁": 138,
  "ld": 139,
  "hat▁": 140,
  "/▁": 141,
  "lde▁": 142,
  "tilde▁": 143,
  "h▁": 144,
  "qua": 145,
  "quad▁": 146,
  "v▁": 147,
  "ng": 148,
  "psi▁": 149,
  "dot▁": 150,
  "ta": 151,
  "rh": 152,
  "rho▁": 153,
  "H▁": 154,
  "w▁": 155,
  "ngle▁": 156,
  "var": 157,
  "tau▁": 158,
  "C▁": 159,
  "P▁": 160,
  "G▁": 161,
  "I▁": 162,
  "V▁": 163,
  "X▁": 164,
  "omega▁": 165,
  "nd": 166,
  "E▁": 167,
  "J▁": 168,
  "bf▁": 169,
  "el": 170,
  "xi▁": 171,
  "Q▁": 172,
  "dot": 173,
  "Phi▁": 174,
  "*▁": 175,
  "dots▁": 176,
  "5▁": 177,
  "vec▁": 178,
  "beg": 179,
  "end": 180,
  "begin": 181,
  "Gam": 182,
  "Gamma▁": 183,
  "!▁": 184,
  "K▁": 185,
  "inft": 186,
  "infty▁": 187,
  "\\{▁": 188,
  "}\"▁": 189,
  "6▁": 190,
  "\\}▁": 191,
  "U▁": 192,
  "ap": 193,
  "rangle▁": 194,
  "W▁": 195,
  "pm▁": 196,
  "Lambda▁": 197,
  "la": 198,
  "Z▁": 199,
  "lin": 200,
  "varphi▁": 201,
  "line▁": 202,
  "ver": 203,
  "Del": 204,
  "Delta▁": 205,
  "si": 206,
  "chi▁": 207,
  "8▁": 208,
  "\\!▁": 209,
  "Omega▁": 210,
  "ro": 211,
  "row▁": 212,
  ":▁": 213,
  "app": 214,
  "kapp": 215,
  "kappa▁": 216,
  "arrow▁": 217,
  "qquad▁": 218,
  "cdot▁": 219,
  "rightarrow▁": 220,
  "\"{▁": 221,
  "Psi▁": 222,
  "lo": 223,
  "ge": 224,
  "da": 225,
  "equ": 226,
  "equi": 227,
  "equiv▁": 228,
  "big": 229,
  "langle▁": 230,
  "st": 231,
  "over": 232,
  "Big": 233,
  "me": 234,
  "sp": 235,
  "time": 236,
  "times▁": 237,
  "overline▁": 238,
  ">▁": 239,
  "ath": 240,
  "pro": 241,
  "psi": 242,
  "lon▁": 243,
  ")\"▁": 244,
  "psilon▁": 245,
  "dag": 246,
  "ger▁": 247,
  "dagger▁": 248,
  "<▁": 249,
  "math": 250,
  "zeta▁": 251,
  "vare": 252,
  "varepsilon▁": 253,
  "cdots▁": 254,
  "O▁": 255,
  "na": 256,
  "bl": 257,
  "bla▁": 258,
  "nabla▁": 259,
  "Y▁": 260,
  "ldots▁": 261,
  "sty": 262,
  "style▁": 263,
  "id": 264,
  "ide": 265,
  "wide": 266,
  "Sigma▁": 267,
  "ell▁": 268,
  "ge▁": 269,
  "7▁": 270,
  "ce▁": 271,
  "mathcal▁": 272,
  "otimes▁": 273,
  "spa": 274,
  "space▁": 275,
  "\\:▁": 276,
  "prod▁": 277,
  "we": 278,
  "wed": 279,
  "wedge▁": 280,
  "9▁": 281,
  "er": 282,
  "hspace▁": 283,
  "Pi▁": 284,
  "hbar▁": 285,
  "operatorname": 286,
  "sim▁": 287,
  "to▁": 288,
  "vert▁": 289,
  "in▁": 290,
  "Big▁": 291,
  "widetilde▁": 292,
  "di": 293,
  "und": 294,
  "under": 295,
  "lay": 296,
  "disp": 297,
  "display": 298,
  "displaystyle▁": 299,
  "Th": 300,
  "Theta▁": 301,
  "underline▁": 302,
  "mi": 303,
  "\"(▁": 304,
  "mid▁": 305,
  "eq▁": 306,
  "\"[▁": 307,
  "ri": 308,
  "re": 309,
  "as": 310,
  "ast▁": 311,
  "bigg": 312,
  "leq▁": 313,
  "rel▁": 314,
  "ck": 315,
  "no": 316,
  "appro": 317,
  "approx▁": 318,
  "star▁": 319,
  "sta": 320,
  "stack": 321,
  "stackrel▁": 322,
  "bo": 323,
  "per": 324,
  "perp▁": 325,
  "widehat▁": 326,
  "big▁": 327,
  "pt": 328,
  "\"\\{▁": 329,
  "sc": 330,
  "ript": 331,
  "script": 332,
  "vartheta▁": 333,
  "'▁": 334,
  "Bigr▁": 335,
  "mp▁": 336,
  "geq▁": 337,
  "Bigl▁": 338,
  "dag▁": 339,
  "0\"▁": 340,
  "ci": 341,
  "cir": 342,
  "]\"▁": 343,
  "long": 344,
  "neq▁": 345,
  "ck▁": 346,
  "math▁": 347,
  "sim": 348,
  "simeq▁": 349,
  "bra": 350,
  "circ▁": 351,
  "bigg▁": 352,
  "ll▁": 353,
  "biggl▁": 354,
  "us▁": 355,
  "biggr▁": 356,
  "oin": 357,
  "oint▁": 358,
  "longrightarrow▁": 359,
  "op": 360,
  "opl": 361,
  "oplus▁": 362,
  "nu": 363,
  "not▁": 364,
  "bold": 365,
  "boldmath▁": 366,
  "\"-▁": 367,
  "bigr▁": 368,
  "ddot▁": 369,
  "bigl▁": 370,
  "se": 371,
  "\"|▁": 372,
  "ut▁": 373,
  "\\,\"▁": 374,
  "put▁": 375,
  "ria": 376,
  "tria": 377,
  "scriptstyle▁": 378,
  "mb": 379,
  "nonu": 380,
  "nonumb": 381,
  "Xi▁": 382,
  "leftrightarrow▁": 383,
  "lle": 384,
  "\\|▁": 385,
  "\\}\"▁": 386,
  "ch": 387,
  "Bigg": 388,
  "brack▁": 389,
  "che": 390,
  "check▁": 391,
  "--▁": 392,
  "prop": 393,
  "propto▁": 394,
  "triangle▁": 395,
  "fo": 396,
  "su": 397,
  "brace▁": 398,
  "hline▁": 399,
  "set▁": 400,
  "varrho▁": 401,
  "vdots▁": 402,
  "sf▁": 403,
  "siz": 404,
  "size▁": 405,
  "ath▁": 406,
  "imath▁": 407,
  "Bigg▁": 408,
  "ma": 409,
  "sp▁": 410,
  "ngle": 411,
  "er▁": 412,
  ";\"▁": 413,
  "han": 414,
  "fora": 415,
  "phan": 416,
  "tom▁": 417,
  "forall▁": 418,
  "phantom▁": 419,
  "io": 420,
  "iota▁": 421,
  "nonumber▁": 422,
  "it▁": 423,
  "\"<▁": 424,
  "bot▁": 425,
  "box▁": 426,
  "lbrack▁": 427,
  "alle": 428,
  "paralle": 429,
  "parallel▁": 430,
  "rm▁": 431,
  "map": 432,
  "sto▁": 433,
  "mapsto▁": 434,
  "scriptsize▁": 435,
  "sub": 436,
  "\"2▁": 437,
  "up▁": 438,
  "Right": 439,
  "Rightarrow▁": 440,
  "co": 441,
  "bu": 442,
  "subset▁": 443,
  "rangle": 444,
  "1\"▁": 445,
  "jmath▁": 446,
  "bin": 447,
  "om▁": 448,
  "binom▁": 449,
  "Biggr▁": 450,
  "Biggl▁": 451,
  "Upsilon▁": 452,
  "ny▁": 453,
  "tiny▁": 454,
  "dow": 455,
  "overrightarrow▁": 456,
  "\"0▁": 457,
  "ker": 458,
  "wp▁": 459,
  "kern▁": 460,
  "ne▁": 461,
  "nonumber": 462,
  "narrow▁": 463,
  "top▁": 464,
  "bulle": 465,
  "bullet▁": 466,
  "dots": 467,
  "downarrow▁": 468,
  "gg▁": 469,
  "sma": 470,
  "Lo": 471,
  "ve▁": 472,
  "Long": 473,
  "atop▁": 474,
  "bre": 475,
  "breve▁": 476,
  "sh▁": 477,
  "upar": 478,
  "uparrow▁": 479,
  "con": 480,
  "cong▁": 481,
  "vee▁": 482,
  "rai": 483,
  "bigoplus▁": 484,
  "sla": 485,
  "ebox▁": 486,
  "slash▁": 487,
  "cup▁": 488,
  "\"1▁": 489,
  "ca": 490,
  "cap▁": 491,
  "arge▁": 492,
  "leftarrow▁": 493,
  "te": 494,
  "Im▁": 495,
  "small▁": 496,
  "\"+▁": 497,
  "underbrace▁": 498,
  "mak": 499,
  "makebox▁": 500,
  "har": 501,
  "rbrack▁": 502,
  "sb▁": 503,
  "varpi▁": 504,
  "\"=▁": 505,
  "po": 506,
  "ddots▁": 507,
  "mathsf▁": 508,
  ">\"▁": 509,
  "=\"▁": 510,
  "lbrace▁": 511,
  "upsilon▁": 512,
  "#▁": 513,
  "sk": 514,
  "te▁": 515,
  "rbrace▁": 516,
  "triangle": 517,
  "Re▁": 518,
  "ip▁": 519,
  "skip▁": 520,
  "vspace▁": 521,
  "Longrightarrow▁": 522,
  "quad": 523,
  "\\;\"▁": 524,
  "cu": 525,
  "sup": 526,
  "\\#▁": 527,
  "poo": 528,
  "harpoo": 529,
  "2\"▁": 530,
  "acu": 531,
  "mit▁": 532,
  "acute▁": 533,
  "al": 534,
  "nd▁": 535,
  "nup▁": 536,
  "supset▁": 537,
  "harpoonup▁": 538,
  "bigtriangle": 539,
  "rightharpoonup▁": 540,
  "raise": 541,
  "raisebox▁": 542,
  "set": 543,
  "varsigma▁": 544,
  "alig": 545,
  "ule▁": 546,
  "align▁": 547,
  "Le": 548,
  "Left": 549,
  "Leftrightarrow▁": 550,
  "noalign▁": 551,
  "en": 552,
  "ldots": 553,
  "\\\"▁": 554,
  "circ": 555,
  "large▁": 556,
  "circle▁": 557,
  "ot": 558,
  "ct▁": 559,
  "flo": 560,
  "or▁": 561,
  "foot": 562,
  "floor▁": 563,
  "footno": 564,
  ":\"▁": 565,
  "th▁": 566,
  "leng": 567,
  "length▁": 568,
  "lap▁": 569,
  "bigtriangleup▁": 570,
  "fi": 571,
  "null▁": 572,
  "footnote": 573,
  "se▁": 574,
  "prote": 575,
  "Large▁": 576,
  "footnotesize▁": 577,
  "\"\"▁": 578,
  "hfi": 579,
  "amo": 580,
  "diamo": 581,
  "raise▁": 582,
  "vphantom▁": 583,
  "\\_▁": 584,
  "tt▁": 585,
  "cdot": 586,
  "Ver": 587,
  "Vert▁": 588,
  "llap▁": 589,
  "bj": 590,
  "bje": 591,
  "bui": 592,
  "~\"▁": 593,
  "build": 594,
  "buildrel▁": 595,
  "\"4▁": 596,
  "cdots": 597,
  "`▁": 598,
  "it": 599,
  "sl▁": 600,
  "enspace▁": 601,
  "overleftarrow▁": 602,
  "un": 603,
  "3\"▁": 604,
  "+\"▁": 605,
  "diamond▁": 606,
  "\"\\:▁": 607,
  "hfill▁": 608,
  "rfloor▁": 609,
  "|\"▁": 610,
  "ct": 611,
  "\\:\"▁": 612,
  "bigotimes▁": 613,
  "doteq▁": 614,
  "protect▁": 615,
  "qquad": 616,
  "unit": 617,
  "unitlength▁": 618,
  "em": 619,
  "matho": 620,
  "\"3▁": 621,
  "pty": 622,
  "empty": 623,
  "be": 624,
  "\"^▁": 625,
  "min": 626,
  "mm▁": 627,
  "infty": 628,
  "minus▁": 629,
  "emptyset▁": 630,
  "cm▁": 631,
  "---▁": 632,
  "mathop▁": 633,
  "ph▁": 634,
  "ref▁": 635,
  "fbox▁": 636,
  "seteq▁": 637,
  "ba": 638,
  "hi": 639,
  "ale": 640,
  "back": 641,
  "rule▁": 642,
  "aleph▁": 643,
  "backslash▁": 644,
  "\\-▁": 645,
  "bel▁": 646,
  "shar": 647,
  "label▁": 648,
  "sharp▁": 649,
  "longmapsto▁": 650,
  "mo": 651,
  "ela": 652,
  "mod▁": 653,
  "rela": 654,
  "subseteq▁": 655,
  "overbrace▁": 656,
  "mu": 657,
  "\":▁": 658,
  "eta": 659,
  "\"\\|▁": 660,
  "relax▁": 661,
  "mathit▁": 662,
  "fla": 663,
  "flat▁": 664,
  "vskip▁": 665,
  "col": 666,
  "str": 667,
  "\"\\,▁": 668,
  "strut▁": 669,
  "bigcup▁": 670,
  "0.": 671,
  "ni▁": 672,
  "Obje": 673,
  "obje": 674,
  "smal": 675,
  "cdotp": 676,
  "odot▁": 677,
  "Object": 678,
  "object▁": 679,
  "setlength▁": 680,
  "colon▁": 681,
  "ne": 682,
  "-\"▁": 683,
  "\\/▁": 684,
  "thin": 685,
  "thinspace▁": 686,
  "lti": 687,
  "phi": 688,
  "multi": 689,
  "small": 690,
  "lfloor▁": 691,
  "bigwedge▁": 692,
  "smallskip▁": 693,
  "pound": 694,
  "pounds▁": 695,
  "oo": 696,
  "ominus▁": 697,
  "\"_▁": 698,
  "4\"▁": 699,
  "tau": 700,
  "land▁": 701,
  "longleftarrow▁": 702,
  "\"\\;▁": 703,
  "bmod▁": 704,
  "um": 705,
  "\\*▁": 706,
  "med": 707,
  "umn▁": 708,
  "down▁": 709,
  "column▁": 710,
  "protect": 711,
  "medskip▁": 712,
  "multicolumn▁": 713,
  "bigtriangledown▁": 714,
  "fr": 715,
  "pi": 716,
  "tc": 717,
  "com": 718,
  "hoo": 719,
  "new": 720,
  "fram": 721,
  "hook": 722,
  "mega": 723,
  "retc": 724,
  "comma": 725,
  "hrule▁": 726,
  "retch▁": 727,
  "vline▁": 728,
  "vrule▁": 729,
  "arrayst": 730,
  "enskip▁": 731,
  "parbox▁": 732,
  "command▁": 733,
  "framebox▁": 734,
  "newcommand▁": 735,
  "arraystretch▁": 736,
  "hookrightarrow▁": 737,
  "?▁": 738,
  "xi": 739,
  "nor": 740,
  "line": 741,
  "theta": 742,
  "cdotp▁": 743,
  "setminus▁": 744,
  "renewcommand▁": 745,
  "sq": 746,
  "\"*▁": 747,
  "\"\\▁": 748,
  "\"~▁": 749,
  "pt▁": 750,
  "(\"▁": 751,
  "ick": 752,
  "ral▁": 753,
  "thick": 754,
  "times": 755,
  "bigcap▁": 756,
  "tu": 757,
  "lowe": 758,
  "natu": 759,
  "hfil▁": 760,
  "rlap▁": 761,
  "lower▁": 762,
  "natural▁": 763,
  "cto": 764,
  "ss▁": 765,
  "ndsu": 766,
  "sep▁": 767,
  "ctor▁": 768,
  "ndsuit▁": 769,
  "vector▁": 770,
  "diamondsuit▁": 771,
  "ce": 772,
  "\"6▁": 773,
  "Phi": 774,
  "Psi": 775,
  "rd▁": 776,
  "\"\\!▁": 777,
  "omega": 778,
  "pmod▁": 779,
  "ddagger▁": 780,
  "\"8▁": 781,
  "chi": 782,
  "mid": 783,
  "\"\\#▁": 784,
  "rbra": 785,
  "lines▁": 786,
  "sqcup▁": 787,
  "thicklines▁": 788,
  "AR": 789,
  "sm": 790,
  "5\"▁": 791,
  "6\"▁": 792,
  "8\"▁": 793,
  "ARG": 794,
  "sc▁": 795,
  "LARG": 796,
  "ash▁": 797,
  "mal▁": 798,
  "righ": 799,
  "ambda": 800,
  "LARGE▁": 801,
  "right▁": 802,
  "smash▁": 803,
  "varphi": 804,
  "colsep▁": 805,
  "normal▁": 806,
  "triangleright▁": 807,
  "Do": 808,
  "Dow": 809,
  "\\&▁": 810,
  "exi": 811,
  "vda": 812,
  "sts▁": 813,
  "bigm▁": 814,
  "surd▁": 815,
  "vdash▁": 816,
  "exists▁": 817,
  "bigcirc▁": 818,
  "searrow▁": 819,
  "Downarrow▁": 820,
  "ov": 821,
  ".5▁": 822,
  "9\"▁": 823,
  "[\"▁": 824,
  "mal": 825,
  "pre": 826,
  "rho": 827,
  "spe": 828,
  "elim": 829,
  "uge▁": 830,
  "cial▁": 831,
  "oval▁": 832,
  "normal": 833,
  "special▁": 834,
  "hphantom▁": 835,
  "normalsize▁": 836,
  "arraycolsep▁": 837,
  "eq": 838,
  "0.1": 839,
  "\\[▁": 840,
  "\\]▁": 841,
  "cei": 842,
  "gro": 843,
  "hap": 844,
  "suc": 845,
  "8.5▁": 846,
  "bin▁": 847,
  "ceq▁": 848,
  "eqn▁": 849,
  "shap": 850,
  "ter▁": 851,
  "0.14▁": 852,
  "Huge▁": 853,
  "Omega": 854,
  "ceil▁": 855,
  "cite▁": 856,
  "group▁": 857,
  "mkern▁": 858,
  "shape▁": 859,
  "lefteqn▁": 860,
  "mathbin▁": 861,
  "mathrel▁": 862,
  "AA▁": 863,
  "\\'▁": 864,
  "0.1▁": 865,
  "0.4▁": 866,
  "0.5▁": 867,
  "vert": 868,
  "Biggm▁": 869,
  "lambda": 870,
  "lceil▁": 871,
  "rbrace": 872,
  "rbrack": 873,
  "sqcap▁": 874,
  "itshape▁": 875,
  "footnote▁": 876,
  "multiput▁": 877,
  "supseteq▁": 878,
  "unboldmath▁": 879,
  "3.": 880,
  "@▁": 881,
  "cr": 882,
  "zi": 883,
  "!\"▁": 884,
  "\"5▁": 885,
  "16▁": 886,
  "7\"▁": 887,
  "\\(▁": 888,
  "\\)▁": 889,
  "ae▁": 890,
  "asy": 891,
  "cen": 892,
  "clo": 893,
  "crc": 894,
  "cup": 895,
  "do▁": 896,
  "ft▁": 897,
  "lld": 898,
  "qbe": 899,
  "row": 900,
  "alg▁": 901,
  "ensu": 902,
  "igma": 903,
  "iter": 904,
  "Bigm▁": 905,
  "Delta": 906,
  "Gamma": 907,
  "arrow": 908,
  "crcr▁": 909,
  "equiv": 910,
  "fill▁": 911,
  "left▁": 912,
  "ness▁": 913,
  "nulld": 914,
  "open▁": 915,
  "prec▁": 916,
  "qbezi": 917,
  "Lambda": 918,
  "amalg▁": 919,
  "asymp▁": 920,
  "close▁": 921,
  "ensure": 922,
  "hskip▁": 923,
  "elimiter": 924,
  "ooalign▁": 925,
  "qbezier▁": 926,
  "linethick": 927,
  "mathopen▁": 928,
  "mathclose▁": 929,
  "ensuremath▁": 930,
  "nulldelimiter": 931,
  "triangleleft▁": 932,
  "Longleftarrow▁": 933,
  "linethickness▁": 934,
  "sw": 935,
  "wi": 936,
  "\"`▁": 937,
  "box": 938,
  "ew▁": 939,
  "gra": 940,
  "lon": 941,
  "ns▁": 942,
  "smi": 943,
  "thd": 944,
  "\\|\"▁": 945,
  "coun": 946,
  "fbox": 947,
  "noti": 948,
  "vcen": 949,
  "vss▁": 950,
  "zeta": 951,
  "ddag▁": 952,
  "kappa": 953,
  "lint▁": 954,
  "sigma": 955,
  "skew▁": 956,
  "succ▁": 957,
  "withd": 958,
  "elims▁": 959,
  "grave▁": 960,
  "notin▁": 961,
  "psilon": 962,
  "smile▁": 963,
  "lgroup▁": 964,
  "mathtt▁": 965,
  "oslash▁": 966,
  "preceq▁": 967,
  "rgroup▁": 968,
  "setcoun": 969,
  "succeq▁": 970,
  "bigskip▁": 971,
  "fboxsep▁": 972,
  "mathord▁": 973,
  "nearrow▁": 974,
  "swarrow▁": 975,
  "vcenter▁": 976,
  "bigsqcup▁": 977,
  "harpoons▁": 978,
  "protectu▁": 979,
  "rightleft": 980,
  "smallint▁": 981,
  "varepsilon": 982,
  "setcounter▁": 983,
  "withdelims▁": 984,
  "gg": 985,
  "sy": 986,
  "\"9▁": 987,
  "0.2": 988,
  "SS▁": 989,
  "ak▁": 990,
  "ato": 991,
  "ell": 992,
  "em▁": 993,
  "leq": 994,
  "lq▁": 995,
  "mar": 996,
  "mbo": 997,
  "on▁": 998,
  "tab": 999,
  "0.3▁": 1000,
  "3.1▁": 1001,
  "3.2▁": 1002,
  "atop": 1003,
  "hss▁": 1004,
  "mark▁": 1005,
  "mbol▁": 1006,
  "sion▁": 1007,
  "verb▁": 1008,
  "break▁": 1009,
  "cline▁": 1010,
  "mskip▁": 1011,
  "noline": 1012,
  "mathver": 1013,
  "ointop▁": 1014,
  "symbol▁": 1015,
  "arrowfill▁": 1016,
  "arrowvert▁": 1017,
  "mathstrut▁": 1018,
  "tabcolsep▁": 1019,
  "mathnormal▁": 1020,
  "mathversion▁": 1021,
  "nolinebreak▁": 1022,
  "footnotemark▁": 1023,
  "atopwithdelims▁": 1024,
  "rightarrowfill▁": 1025,
  "1.": 1026,
  "2.": 1027,
  "Pi": 1028,
  "Xi": 1029,
  "\\/": 1030,
  "ac": 1031,
  "de": 1032,
  "ex": 1033,
  "hb": 1034,
  "ll": 1035,
  "pa": 1036,
  "pm": 1037,
  "ss": 1038,
  "up": 1039,
  "\"'▁": 1040,
  "\",▁": 1041,
  "\".▁": 1042,
  "\"/▁": 1043,
  "\"7▁": 1044,
  "10▁": 1045,
  "20▁": 1046,
  "\\^▁": 1047,
  "aft": 1048,
  "ave": 1049,
  "cas": 1050,
  "de▁": 1051,
  "for": 1052,
  "geq": 1053,
  "man": 1054,
  "of▁": 1055,
  "ot▁": 1056,
  "vmo": 1057,
  "\"\"\"▁": 1058,
  "0.9▁": 1059,
  "1.5▁": 1060,
  "1.7▁": 1061,
  "2.1▁": 1062,
  "\\!\"▁": 1063,
  "\\\"\"▁": 1064,
  "\\/\"▁": 1065,
  "cte▁": 1066,
  "def▁": 1067,
  "ever": 1068,
  "expa": 1069,
  "hbar": 1070,
  "las▁": 1071,
  "led▁": 1072,
  "nume": 1073,
  "\"---▁": 1074,
  "0.23▁": 1075,
  "0.25▁": 1076,
  "Sigma": 1077,
  "Theta": 1078,
  "accen": 1079,
  "case▁": 1080,
  "emph▁": 1081,
  "every": 1082,
  "formu": 1083,
  "hfill": 1084,
  "huge▁": 1085,
  "leave": 1086,
  "ndaft": 1087,
  "relax": 1088,
  "roman": 1089,
  "root▁": 1090,
  "upper": 1091,
  "biggm▁": 1092,
  "rceil▁": 1093,
  "vmode▁": 1094,
  "accent▁": 1095,
  "bigvee▁": 1096,
  "coprod▁": 1097,
  "partial": 1098,
  "circled▁": 1099,
  "dotfill▁": 1100,
  "emptyset": 1101,
  "ndafter▁": 1102,
  "numeral▁": 1103,
  "parallel": 1104,
  "scshape▁": 1105,
  "formulas▁": 1106,
  "protectE▁": 1107,
  "protectZ▁": 1108,
  "protecte▁": 1109,
  "protectm▁": 1110,
  "everymath▁": 1111,
  "uppercase▁": 1112,
  "leavevmode▁": 1113,
  "mathaccent▁": 1114,
  "expandafter▁": 1115,
  "romannumeral▁": 1116,
  "overwithdelims▁": 1117,
  "!\"": 1118,
  "\"\"": 1119,
  "\"'": 1120,
  "\"(": 1121,
  "\"*": 1122,
  "\"+": 1123,
  "\",": 1124,
  "\"-": 1125,
  "\".": 1126,
  "\"/": 1127,
  "\"0": 1128,
  "\"1": 1129,
  "\"2": 1130,
  "\"3": 1131,
  "\"4": 1132,
  "\"5": 1133,
  "\"6": 1134,
  "\"7": 1135,
  "\"8": 1136,
  "\"9": 1137,
  "\":": 1138,
  "\"<": 1139,
  "\"=": 1140,
  "\"[": 1141,
  "\"^": 1142,
  "\"_": 1143,
  "\"`": 1144,
  "\"{": 1145,
  "\"|": 1146,
  "\"~": 1147,
  "(\"": 1148,
  ")\"": 1149,
  "+\"": 1150,
  ",\"": 1151,
  "-\"": 1152,
  "--": 1153,
  ".\"": 1154,
  ".1": 1155,
  ".2": 1156,
  ".3": 1157,
  ".4": 1158,
  ".5": 1159,
  ".7": 1160,
  ".9": 1161,
  "/\"": 1162,
  "0\"": 1163,
  "1\"": 1164,
  "10": 1165,
  "14": 1166,
  "16": 1167,
  "2\"": 1168,
  "20": 1169,
  "23": 1170,
  "25": 1171,
  "3\"": 1172,
  "4\"": 1173,
  "5\"": 1174,
  "6\"": 1175,
  "7\"": 1176,
  "8\"": 1177,
  "8.": 1178,
  "9\"": 1179,
  ":\"": 1180,
  ";\"": 1181,
  "=\"": 1182,
  ">\"": 1183,
  "AA": 1184,
  "Bi": 1185,
  "De": 1186,
  "GE": 1187,
  "Ga": 1188,
  "Hu": 1189,
  "Im": 1190,
  "LA": 1191,
  "La": 1192,
  "Ob": 1193,
  "Om": 1194,
  "Ph": 1195,
  "Ps": 1196,
  "RG": 1197,
  "Re": 1198,
  "Ri": 1199,
  "SS": 1200,
  "Si": 1201,
  "Up": 1202,
  "Ve": 1203,
  "[\"": 1204,
  "\\!": 1205,
  "\\\"": 1206,
  "\\#": 1207,
  "\\&": 1208,
  "\\'": 1209,
  "\\(": 1210,
  "\\)": 1211,
  "\\*": 1212,
  "\\,": 1213,
  "\\-": 1214,
  "\\:": 1215,
  "\\;": 1216,
  "\\[": 1217,
  "\\\\": 1218,
  "\\]": 1219,
  "\\^": 1220,
  "\\_": 1221,
  "\\{": 1222,
  "\\|": 1223,
  "\\}": 1224,
  "]\"": 1225,
  "ab": 1226,
  "ad": 1227,
  "ae": 1228,
  "af": 1229,
  "ag": 1230,
  "ai": 1231,
  "ak": 1232,
  "an": 1233,
  "at": 1234,
  "au": 1235,
  "av": 1236,
  "ax": 1237,
  "ay": 1238,
  "bc": 1239,
  "bf": 1240,
  "bi": 1241,
  "bm": 1242,
  "br": 1243,
  "bs": 1244,
  "cc": 1245,
  "cd": 1246,
  "cl": 1247,
  "cm": 1248,
  "cs": 1249,
  "dd": 1250,
  "dg": 1251,
  "dm": 1252,
  "dr": 1253,
  "ds": 1254,
  "ea": 1255,
  "eb": 1256,
  "ec": 1257,
  "ed": 1258,
  "ee": 1259,
  "ef": 1260,
  "eh": 1261,
  "ei": 1262,
  "ep": 1263,
  "es": 1264,
  "et": 1265,
  "eu": 1266,
  "ev": 1267,
  "ew": 1268,
  "ez": 1269,
  "fb": 1270,
  "fl": 1271,
  "ga": 1272,
  "gc": 1273,
  "gh": 1274,
  "gi": 1275,
  "gl": 1276,
  "gm": 1277,
  "gn": 1278,
  "go": 1279,
  "gr": 1280,
  "gs": 1281,
  "gt": 1282,
  "gv": 1283,
  "gw": 1284,
  "hc": 1285,
  "hd": 1286,
  "he": 1287,
  "hf": 1288,
  "hl": 1289,
  "hn": 1290,
  "ho": 1291,
  "hp": 1292,
  "hr": 1293,
  "hs": 1294,
  "ht": 1295,
  "hu": 1296,
  "hv": 1297,
  "ia": 1298,
  "ic": 1299,
  "ie": 1300,
  "il": 1301,
  "ip": 1302,
  "ir": 1303,
  "is": 1304,
  "iv": 1305,
  "iz": 1306,
  "je": 1307,
  "jm": 1308,
  "ka": 1309,
  "ke": 1310,
  "ki": 1311,
  "kl": 1312,
  "kn": 1313,
  "kr": 1314,
  "ks": 1315,
  "lb": 1316,
  "lc": 1317,
  "lf": 1318,
  "lg": 1319,
  "li": 1320,
  "lq": 1321,
  "ls": 1322,
  "lt": 1323,
  "lu": 1324,
  "mk": 1325,
  "mm": 1326,
  "mn": 1327,
  "mp": 1328,
  "ms": 1329,
  "nb": 1330,
  "nf": 1331,
  "ni": 1332,
  "nn": 1333,
  "ns": 1334,
  "nt": 1335,
  "ny": 1336,
  "oa": 1337,
  "ob": 1338,
  "od": 1339,
  "of": 1340,
  "oi": 1341,
  "ok": 1342,
  "ol": 1343,
  "om": 1344,
  "on": 1345,
  "or": 1346,
  "os": 1347,
  "ou": 1348,
  "ow": 1349,
  "ox": 1350,
  "ph": 1351,
  "pl": 1352,
  "pp": 1353,
  "ps": 1354,
  "pu": 1355,
  "pw": 1356,
  "qb": 1357,
  "qc": 1358,
  "qn": 1359,
  "qq": 1360,
  "rb": 1361,
  "rc": 1362,
  "rd": 1363,
  "rf": 1364,
  "rg": 1365,
  "rk": 1366,
  "rl": 1367,
  "rm": 1368,
  "rp": 1369,
  "rr": 1370,
  "rs": 1371,
  "rt": 1372,
  "ru": 1373,
  "rw": 1374,
  "ry": 1375,
  "sb": 1376,
  "sf": 1377,
  "sh": 1378,
  "sl": 1379,
  "tE": 1380,
  "tZ": 1381,
  "tf": 1382,
  "tl": 1383,
  "tm": 1384,
  "tn": 1385,
  "tp": 1386,
  "tr": 1387,
  "ts": 1388,
  "tt": 1389,
  "ty": 1390,
  "ua": 1391,
  "ub": 1392,
  "uc": 1393,
  "ug": 1394,
  "ui": 1395,
  "ul": 1396,
  "ur": 1397,
  "us": 1398,
  "ut": 1399,
  "va": 1400,
  "vc": 1401,
  "vd": 1402,
  "vl": 1403,
  "vm": 1404,
  "vp": 1405,
  "vr": 1406,
  "vs": 1407,
  "wa": 1408,
  "wc": 1409,
  "wf": 1410,
  "wn": 1411,
  "wp": 1412,
  "wv": 1413,
  "xp": 1414,
  "xs": 1415,
  "yc": 1416,
  "yl": 1417,
  "ym": 1418,
  "ys": 1419,
  "ze": 1420,
  "|\"": 1421,
  "}\"": 1422,
  "~\"": 1423,
  "\"\\!": 1424,
  "\"\\#": 1425,
  "\"\\:": 1426,
  ".1▁": 1427,
  ".2▁": 1428,
  ".3▁": 1429,
  ".4▁": 1430,
  ".7▁": 1431,
  ".9▁": 1432,
  "/\"▁": 1433,
  "14▁": 1434,
  "23▁": 1435,
  "25▁": 1436,
  "GE▁": 1437,
  "LAR": 1438,
  "Lam": 1439,
  "Lar": 1440,
  "Obj": 1441,
  "Rig": 1442,
  "Sig": 1443,
  "The": 1444,
  "ack": 1445,
  "ad▁": 1446,
  "ag▁": 1447,
  "ama": 1448,
  "amb": 1449,
  "ame": 1450,
  "amm": 1451,
  "and": 1452,
  "ang": 1453,
  "aps": 1454,
  "ap▁": 1455,
  "ara": 1456,
  "arb": 1457,
  "are": 1458,
  "arg": 1459,
  "ark": 1460,
  "arp": 1461,
  "arr": 1462,
  "ars": 1463,
  "art": 1464,
  "as▁": 1465,
  "at▁": 1466,
  "au▁": 1467,
  "ax▁": 1468,
  "bar": 1469,
  "bco": 1470,
  "bda": 1471,
  "ber": 1472,
  "bez": 1473,
  "bmo": 1474,
  "bse": 1475,
  "cc▁": 1476,
  "cdo": 1477,
  "ch▁": 1478,
  "cit": 1479,
  "ckn": 1480,
  "cks": 1481,
  "cle": 1482,
  "cou": 1483,
  "cri": 1484,
  "cr▁": 1485,
  "das": 1486,
  "da▁": 1487,
  "dda": 1488,
  "ddo": 1489,
  "del": 1490,
  "dsk": 1491,
  "ds▁": 1492,
  "ear": 1493,
  "ebo": 1494,
  "ec▁": 1495,
  "ed▁": 1496,
  "ee▁": 1497,
  "eft": 1498,
  "ef▁": 1499,
  "ega": 1500,
  "egi": 1501,
  "eha": 1502,
  "el▁": 1503,
  "emp": 1504,
  "ent": 1505,
  "en▁": 1506,
  "ep▁": 1507,
  "era": 1508,
  "erb": 1509,
  "esi": 1510,
  "es▁": 1511,
  "eth": 1512,
  "eti": 1513,
  "et▁": 1514,
  "eve": 1515,
  "exp": 1516,
  "fbo": 1517,
  "fil": 1518,
  "foo": 1519,
  "fte": 1520,
  "fth": 1521,
  "ftr": 1522,
  "fty": 1523,
  "ga▁": 1524,
  "gge": 1525,
  "gle": 1526,
  "gl▁": 1527,
  "gm▁": 1528,
  "gr▁": 1529,
  "gth": 1530,
  "hin": 1531,
  "ho▁": 1532,
  "hsk": 1533,
  "hsp": 1534,
  "ht▁": 1535,
  "iam": 1536,
  "id▁": 1537,
  "igc": 1538,
  "igg": 1539,
  "igm": 1540,
  "ign": 1541,
  "igo": 1542,
  "igr": 1543,
  "igs": 1544,
  "igt": 1545,
  "igv": 1546,
  "igw": 1547,
  "ig▁": 1548,
  "ild": 1549,
  "il▁": 1550,
  "ima": 1551,
  "ime": 1552,
  "imi": 1553,
  "im▁": 1554,
  "ine": 1555,
  "ino": 1556,
  "ins": 1557,
  "int": 1558,
  "inu": 1559,
  "ise": 1560,
  "isp": 1561,
  "ist": 1562,
  "ith": 1563,
  "its": 1564,
  "iv▁": 1565,
  "kap": 1566,
  "kre": 1567,
  "lab": 1568,
  "lam": 1569,
  "lan": 1570,
  "lar": 1571,
  "las": 1572,
  "la▁": 1573,
  "lce": 1574,
  "lde": 1575,
  "ldm": 1576,
  "ldo": 1577,
  "ldr": 1578,
  "lea": 1579,
  "led": 1580,
  "lef": 1581,
  "lel": 1582,
  "len": 1583,
  "lep": 1584,
  "ler": 1585,
  "leu": 1586,
  "lg▁": 1587,
  "lig": 1588,
  "lim": 1589,
  "lla": 1590,
  "loo": 1591,
  "los": 1592,
  "low": 1593,
  "lse": 1594,
  "lsi": 1595,
  "lsk": 1596,
  "lta": 1597,
  "mas": 1598,
  "mbe": 1599,
  "mer": 1600,
  "mes": 1601,
  "me▁": 1602,
  "mma": 1603,
  "mn▁": 1604,
  "mod": 1605,
  "mpt": 1606,
  "msk": 1607,
  "ms▁": 1608,
  "mul": 1609,
  "nab": 1610,
  "nam": 1611,
  "nar": 1612,
  "nat": 1613,
  "nbo": 1614,
  "nda": 1615,
  "nde": 1616,
  "nds": 1617,
  "nes": 1618,
  "nft": 1619,
  "ngm": 1620,
  "ng▁": 1621,
  "nit": 1622,
  "nnu": 1623,
  "noa": 1624,
  "non": 1625,
  "not": 1626,
  "nsk": 1627,
  "nsp": 1628,
  "nsu": 1629,
  "nto": 1630,
  "nt▁": 1631,
  "nul": 1632,
  "num": 1633,
  "oal": 1634,
  "obj": 1635,
  "odo": 1636,
  "od▁": 1637,
  "old": 1638,
  "olo": 1639,
  "ol▁": 1640,
  "ond": 1641,
  "ong": 1642,
  "onu": 1643,
  "ook": 1644,
  "opr": 1645,
  "op▁": 1646,
  "ora": 1647,
  "oti": 1648,
  "ove": 1649,
  "ow▁": 1650,
  "ox▁": 1651,
  "pa▁": 1652,
  "pec": 1653,
  "pe▁": 1654,
  "pha": 1655,
  "pla": 1656,
  "pmo": 1657,
  "ppe": 1658,
  "ppr": 1659,
  "pri": 1660,
  "pse": 1661,
  "pts": 1662,
  "pwi": 1663,
  "qca": 1664,
  "qn▁": 1665,
  "qqu": 1666,
  "qui": 1667,
  "rac": 1668,
  "ral": 1669,
  "ram": 1670,
  "ran": 1671,
  "rat": 1672,
  "rav": 1673,
  "rb▁": 1674,
  "rce": 1675,
  "rc▁": 1676,
  "rea": 1677,
  "rel": 1678,
  "ren": 1679,
  "ret": 1680,
  "rev": 1681,
  "rig": 1682,
  "rip": 1683,
  "rla": 1684,
  "rle": 1685,
  "rma": 1686,
  "rmu": 1687,
  "rn▁": 1688,
  "rom": 1689,
  "roo": 1690,
  "rou": 1691,
  "rp▁": 1692,
  "rsp": 1693,
  "rt▁": 1694,
  "scs": 1695,
  "sha": 1696,
  "sig": 1697,
  "sil": 1698,
  "sio": 1699,
  "ske": 1700,
  "ski": 1701,
  "st▁": 1702,
  "sui": 1703,
  "sur": 1704,
  "sym": 1705,
  "tE▁": 1706,
  "tZ▁": 1707,
  "tac": 1708,
  "tar": 1709,
  "tco": 1710,
  "tec": 1711,
  "tem": 1712,
  "ter": 1713,
  "tha": 1714,
  "thb": 1715,
  "thc": 1716,
  "the": 1717,
  "thi": 1718,
  "thn": 1719,
  "tho": 1720,
  "thr": 1721,
  "ths": 1722,
  "tht": 1723,
  "thv": 1724,
  "tia": 1725,
  "tic": 1726,
  "til": 1727,
  "tim": 1728,
  "tin": 1729,
  "tip": 1730,
  "tle": 1731,
  "tm▁": 1732,
  "tno": 1733,
  "top": 1734,
  "tor": 1735,
  "tp▁": 1736,
  "tri": 1737,
  "tsi": 1738,
  "tst": 1739,
  "ts▁": 1740,
  "tu▁": 1741,
  "ula": 1742,
  "ume": 1743,
  "unt": 1744,
  "ure": 1745,
  "vdo": 1746,
  "vec": 1747,
  "vev": 1748,
  "vsk": 1749,
  "vsp": 1750,
  "war": 1751,
  "wco": 1752,
  "wfi": 1753,
  "wid": 1754,
  "wn▁": 1755,
  "wve": 1756,
  "xse": 1757,
  "yse": 1758,
  "yst": 1759,
  "ze▁": 1760,
  "Gamm": 1761,
  "Omeg": 1762,
  "Righ": 1763,
  "Upsi": 1764,
  "ace▁": 1765,
  "all▁": 1766,
  "amal": 1767,
  "ame▁": 1768,
  "appa": 1769,
  "appr": 1770,
  "apst": 1771,
  "ark▁": 1772,
  "arp▁": 1773,
  "arra": 1774,
  "arrh": 1775,
  "arro": 1776,
  "arth": 1777,
  "arti": 1778,
  "ase▁": 1779,
  "atha": 1780,
  "athb": 1781,
  "athc": 1782,
  "athi": 1783,
  "athn": 1784,
  "atho": 1785,
  "athr": 1786,
  "aths": 1787,
  "atht": 1788,
  "avev": 1789,
  "bcol": 1790,
  "bda▁": 1791,
  "bezi": 1792,
  "bigc": 1793,
  "bigo": 1794,
  "bigs": 1795,
  "bigt": 1796,
  "bigw": 1797,
  "bino": 1798,
  "bjec": 1799,
  "bol▁": 1800,
  "brac": 1801,
  "brea": 1802,
  "ccen": 1803,
  "ckne": 1804,
  "cle▁": 1805,
  "clin": 1806,
  "colu": 1807,
  "ctE▁": 1808,
  "ctZ▁": 1809,
  "ctm▁": 1810,
  "ctu▁": 1811,
  "ddag": 1812,
  "ddot": 1813,
  "dge▁": 1814,
  "diam": 1815,
  "dote": 1816,
  "dotf": 1817,
  "dotp": 1818,
  "down": 1819,
  "ebre": 1820,
  "eck▁": 1821,
  "ect▁": 1822,
  "ega▁": 1823,
  "egin": 1824,
  "elax": 1825,
  "elta": 1826,
  "empt": 1827,
  "ent▁": 1828,
  "epsi": 1829,
  "ern▁": 1830,
  "ert▁": 1831,
  "esiz": 1832,
  "fil▁": 1833,
  "floo": 1834,
  "ftar": 1835,
  "fty▁": 1836,
  "gle▁": 1837,
  "harp": 1838,
  "hfil": 1839,
  "hlin": 1840,
  "hspa": 1841,
  "ial▁": 1842,
  "ier▁": 1843,
  "igg▁": 1844,
  "igl▁": 1845,
  "igm▁": 1846,
  "ign▁": 1847,
  "igr▁": 1848,
  "igve": 1849,
  "ile▁": 1850,
  "ill▁": 1851,
  "imit": 1852,
  "ims▁": 1853,
  "ine▁": 1854,
  "insp": 1855,
  "into": 1856,
  "int▁": 1857,
  "klin": 1858,
  "labe": 1859,
  "lat▁": 1860,
  "lbra": 1861,
  "lcei": 1862,
  "ldel": 1863,
  "ldot": 1864,
  "ldre": 1865,
  "ledo": 1866,
  "lele": 1867,
  "lel▁": 1868,
  "let▁": 1869,
  "lflo": 1870,
  "lgro": 1871,
  "llel": 1872,
  "llin": 1873,
  "lsiz": 1874,
  "lta▁": 1875,
  "lus▁": 1876,
  "mber": 1877,
  "mes▁": 1878,
  "mker": 1879,
  "mula": 1880,
  "nabl": 1881,
  "nder": 1882,
  "nds▁": 1883,
  "ngth": 1884,
  "noal": 1885,
  "norm": 1886,
  "note": 1887,
  "nspa": 1888,
  "numb": 1889,
  "olin": 1890,
  "omeg": 1891,
  "omin": 1892,
  "ond▁": 1893,
  "opro": 1894,
  "osla": 1895,
  "ota▁": 1896,
  "otno": 1897,
  "ound": 1898,
  "pand": 1899,
  "para": 1900,
  "parb": 1901,
  "parr": 1902,
  "peci": 1903,
  "pen▁": 1904,
  "pera": 1905,
  "perc": 1906,
  "▁": 1907,
  "{": 1908,
  "}": 1909,
  "\\": 1910,
  "a": 1911,
  "i": 1912,
  "_": 1913,
  "t": 1914,
  "e": 1915,
  "^": 1916,
  "r": 1917,
  "m": 1918,
  "l": 1919,
  "p": 1920,
  "(": 1921,
  ")": 1922,
  "2": 1923,
  ",": 1924,
  "h": 1925,
  "n": 1926,
  "g": 1927,
  "d": 1928,
  "1": 1929,
  "-": 1930,
  "=": 1931,
  "\"": 1932,
  "o": 1933,
  "u": 1934,
  "+": 1935,
  "s": 1936,
  "b": 1937,
  "c": 1938,
  "f": 1939,
  "0": 1940,
  "x": 1941,
  ".": 1942,
  "q": 1943,
  "k": 1944,
  "y": 1945,
  "v": 1946,
  ";": 1947,
  "3": 1948,
  "~": 1949,
  "A": 1950,
  "&": 1951,
  "j": 1952,
  "4": 1953,
  "P": 1954,
  "z": 1955,
  "]": 1956,
  "[": 1957,
  "|": 1958,
  "D": 1959,
  "L": 1960,
  "B": 1961,
  "S": 1962,
  "G": 1963,
  "T": 1964,
  "N": 1965,
  "w": 1966,
  "R": 1967,
  "M": 1968,
  "F": 1969,
  "/": 1970,
  "H": 1971,
  "C": 1972,
  "X": 1973,
  "I": 1974,
  "V": 1975,
  "E": 1976,
  "J": 1977,
  "O": 1978,
  "Q": 1979,
  "*": 1980,
  "5": 1981,
  "!": 1982,
  "K": 1983,
  "U": 1984,
  "6": 1985,
  "W": 1986,
  "Z": 1987,
  "8": 1988,
  ":": 1989,
  ">": 1990,
  "<": 1991,
  "Y": 1992,
  "7": 1993,
  "9": 1994,
  "'": 1995,
  "#": 1996,
  "`": 1997,
  "?": 1998,
  "@": 1999
}